{
    "0": "\u0000",
    "1": "\u0001",
    "2": "\u0002",
    "3": "\u0003",
    "4": "\u0004",
    "5": "\u0005",
    "6": "\u0006",
    "7": "\u0007",
    "8": "\b",
    "9": "\t",
    "10": "\n",
    "11": "\u000b",
    "12": "\f",
    "13": "\r",
    "14": "\u000e",
    "15": "\u000f",
    "16": "\u0010",
    "17": "\u0011",
    "18": "\u0012",
    "19": "\u0013",
    "20": "\u0014",
    "21": "\u0015",
    "22": "\u0016",
    "23": "\u0017",
    "24": "\u0018",
    "25": "\u0019",
    "26": "\u001a",
    "27": "\u001b",
    "28": "\u001c",
    "29": "\u001d",
    "30": "\u001e",
    "31": "\u001f",
    "32": " ",
    "33": "!",
    "34": "\"",
    "35": "#",
    "36": "$",
    "37": "%",
    "38": "&",
    "39": "'",
    "40": "(",
    "41": ")",
    "42": "*",
    "43": "+",
    "44": ",",
    "45": "-",
    "46": ".",
    "47": "/",
    "48": "0",
    "49": "1",
    "50": "2",
    "51": "3",
    "52": "4",
    "53": "5",
    "54": "6",
    "55": "7",
    "56": "8",
    "57": "9",
    "58": ":",
    "59": ";",
    "60": "<",
    "61": "=",
    "62": ">",
    "63": "?",
    "64": "@",
    "65": "A",
    "66": "B",
    "67": "C",
    "68": "D",
    "69": "E",
    "70": "F",
    "71": "G",
    "72": "H",
    "73": "I",
    "74": "J",
    "75": "K",
    "76": "L",
    "77": "M",
    "78": "N",
    "79": "O",
    "80": "P",
    "81": "Q",
    "82": "R",
    "83": "S",
    "84": "T",
    "85": "U",
    "86": "V",
    "87": "W",
    "88": "X",
    "89": "Y",
    "90": "Z",
    "91": "[",
    "92": "\\",
    "93": "]",
    "94": "^",
    "95": "_",
    "96": "`",
    "97": "a",
    "98": "b",
    "99": "c",
    "100": "d",
    "101": "e",
    "102": "f",
    "103": "g",
    "104": "h",
    "105": "i",
    "106": "j",
    "107": "k",
    "108": "l",
    "109": "m",
    "110": "n",
    "111": "o",
    "112": "p",
    "113": "q",
    "114": "r",
    "115": "s",
    "116": "t",
    "117": "u",
    "118": "v",
    "119": "w",
    "120": "x",
    "121": "y",
    "122": "z",
    "123": "{",
    "124": "|",
    "125": "}",
    "126": "~",
    "127": "",
    "128": "�",
    "129": "�",
    "130": "�",
    "131": "�",
    "132": "�",
    "133": "�",
    "134": "�",
    "135": "�",
    "136": "�",
    "137": "�",
    "138": "�",
    "139": "�",
    "140": "�",
    "141": "�",
    "142": "�",
    "143": "�",
    "144": "�",
    "145": "�",
    "146": "�",
    "147": "�",
    "148": "�",
    "149": "�",
    "150": "�",
    "151": "�",
    "152": "�",
    "153": "�",
    "154": "�",
    "155": "�",
    "156": "�",
    "157": "�",
    "158": "�",
    "159": "�",
    "160": "�",
    "161": "�",
    "162": "�",
    "163": "�",
    "164": "�",
    "165": "�",
    "166": "�",
    "167": "�",
    "168": "�",
    "169": "�",
    "170": "�",
    "171": "�",
    "172": "�",
    "173": "�",
    "174": "�",
    "175": "�",
    "176": "�",
    "177": "�",
    "178": "�",
    "179": "�",
    "180": "�",
    "181": "�",
    "182": "�",
    "183": "�",
    "184": "�",
    "185": "�",
    "186": "�",
    "187": "�",
    "188": "�",
    "189": "�",
    "190": "�",
    "191": "�",
    "192": "�",
    "193": "�",
    "194": "�",
    "195": "�",
    "196": "�",
    "197": "�",
    "198": "�",
    "199": "�",
    "200": "�",
    "201": "�",
    "202": "�",
    "203": "�",
    "204": "�",
    "205": "�",
    "206": "�",
    "207": "�",
    "208": "�",
    "209": "�",
    "210": "�",
    "211": "�",
    "212": "�",
    "213": "�",
    "214": "�",
    "215": "�",
    "216": "�",
    "217": "�",
    "218": "�",
    "219": "�",
    "220": "�",
    "221": "�",
    "222": "�",
    "223": "�",
    "224": "�",
    "225": "�",
    "226": "�",
    "227": "�",
    "228": "�",
    "229": "�",
    "230": "�",
    "231": "�",
    "232": "�",
    "233": "�",
    "234": "�",
    "235": "�",
    "236": "�",
    "237": "�",
    "238": "�",
    "239": "�",
    "240": "�",
    "241": "�",
    "242": "�",
    "243": "�",
    "244": "�",
    "245": "�",
    "246": "�",
    "247": "�",
    "248": "�",
    "249": "�",
    "250": "�",
    "251": "�",
    "252": "�",
    "253": "�",
    "254": "�",
    "255": "�",
    "256": "<|endoftext|>",
    "257": "he",
    "258": " t",
    "259": " a",
    "260": " s",
    "261": "nd",
    "262": " w",
    "263": " the",
    "264": "ed",
    "265": " b",
    "266": " to",
    "267": " and",
    "268": " h",
    "269": " f",
    "270": "in",
    "271": " wa",
    "272": " T",
    "273": "it",
    "274": "re",
    "275": "ou",
    "276": " l",
    "277": " d",
    "278": " c",
    "279": " p",
    "280": "ay",
    "281": " was",
    "282": "er",
    "283": " m",
    "284": "om",
    "285": " he",
    "286": " The",
    "287": "is",
    "288": " n",
    "289": "on",
    "290": "ar",
    "291": " sa",
    "292": "im",
    "293": "ll",
    "294": "id",
    "295": " ha",
    "296": " g",
    "297": " S",
    "298": "at",
    "299": "ing",
    "300": "ot",
    "301": "en",
    "302": "an",
    "303": "le",
    "304": "or",
    "305": "end",
    "306": "ir",
    "307": "of",
    "308": " H",
    "309": "am",
    "310": "et",
    "311": " it",
    "312": " th",
    "313": "ig",
    "314": " They",
    "315": "il",
    "316": " in",
    "317": " He",
    "318": " pl",
    "319": " \"",
    "320": "ow",
    "321": "e.",
    "322": "ver",
    "323": "ri",
    "324": "s.",
    "325": " u",
    "326": "ut",
    "327": " day",
    "328": " said",
    "329": "ith",
    "330": "pp",
    "331": " play",
    "332": "On",
    "333": " with",
    "334": " be",
    "335": " y",
    "336": " her",
    "337": " r",
    "338": "ked",
    "339": "oo",
    "340": "y.",
    "341": "ex",
    "342": " She",
    "343": " his",
    "344": " I",
    "345": "ld",
    "346": " st",
    "347": " Tim",
    "348": "nt",
    "349": "ck",
    "350": " big",
    "351": "very",
    "352": " you",
    "353": "ce",
    "354": "ke",
    "355": "st",
    "356": "\nOn",
    "357": " happ",
    "358": " on",
    "359": "ve",
    "360": "un",
    "361": "all",
    "362": "ext",
    "363": "riend",
    "364": " friend",
    "365": " L",
    "366": "oft",
    "367": " up",
    "368": " they",
    "369": " said,",
    "370": " want",
    "371": " had",
    "372": " we",
    "373": " not",
    "374": "e,",
    "375": "her",
    "376": " li",
    "377": "itt",
    "378": " do",
    "379": "\nT",
    "380": "\n<",
    "381": "\n<|",
    "382": "\n<|end",
    "383": "\n<|endoft",
    "384": "\n<|endoftext",
    "385": "\n<|endoftext|",
    "386": "\n<|endoftext|>",
    "387": " day,",
    "388": " of",
    "389": " B",
    "390": "ad",
    "391": " e",
    "392": " M",
    "393": "ily",
    "394": "ent",
    "395": " very",
    "396": " that",
    "397": " saw",
    "398": " mom",
    "399": "ould",
    "400": "'s",
    "401": " for",
    "402": "ittle",
    "403": " little",
    "404": " she",
    "405": " sh",
    "406": " tim",
    "407": " k",
    "408": " nam",
    "409": "ch",
    "410": " so",
    "411": "es",
    "412": " there",
    "413": "ound",
    "414": " bo",
    "415": " named",
    "416": "el",
    "417": "ird",
    "418": " sm",
    "419": " wanted",
    "420": " bird",
    "421": " Tom",
    "422": " ne",
    "423": "ved",
    "424": " were",
    "425": " but",
    "426": "!\"",
    "427": "out",
    "428": "\nThe",
    "429": "ht",
    "430": "al",
    "431": " an",
    "432": " too",
    "433": " hel",
    "434": "\nOnce",
    "435": " wh",
    "436": " help",
    "437": "ug",
    "438": " went",
    "439": " all",
    "440": " It",
    "441": " happy",
    "442": "ed.",
    "443": " A",
    "444": " Lily",
    "445": " loo",
    "446": " is",
    "447": " upon",
    "448": "ake",
    "449": " lo",
    "450": " time,",
    "451": "ter",
    "452": "se",
    "453": "ore",
    "454": "\nOne",
    "455": "ind",
    "456": "get",
    "457": " fun",
    "458": "ill",
    "459": " o",
    "460": ".\"",
    "461": "ic",
    "462": "ack",
    "463": "gether",
    "464": " at",
    "465": " j",
    "466": " as",
    "467": " did",
    "468": " re",
    "469": " together",
    "470": "ur",
    "471": " som",
    "472": " cat",
    "473": "ra",
    "474": " dog",
    "475": " se",
    "476": " toy",
    "477": " tre",
    "478": "ame",
    "479": "ood",
    "480": "ue",
    "481": " gir",
    "482": " can",
    "483": " ball",
    "484": " girl",
    "485": " could",
    "486": "ard",
    "487": " ro",
    "488": "art",
    "489": " him",
    "490": "ec",
    "491": " their",
    "492": "ark",
    "493": "way",
    "494": " kn",
    "495": "ide",
    "496": "y,",
    "497": "\n\"",
    "498": " played",
    "499": "?\"",
    "500": "hed",
    "501": " fr",
    "502": "ain",
    "503": "hen",
    "504": " le",
    "505": " out",
    "506": "um",
    "507": "'t",
    "508": " go",
    "509": "ax",
    "510": " them",
    "511": " are",
    "512": " sad",
    "513": " friends",
    "514": "ul",
    "515": "oug",
    "516": " cl",
    "517": " have",
    "518": " loved",
    "519": "other",
    "520": " back",
    "521": "my",
    "522": " looked",
    "523": " ca",
    "524": " sp",
    "525": " found",
    "526": "own",
    "527": " boy",
    "528": " Max",
    "529": " sc",
    "530": " man",
    "531": " it.",
    "532": "hing",
    "533": " \"I",
    "534": " park",
    "535": " On",
    "536": "ong",
    "537": "op",
    "538": "ful",
    "539": " bec",
    "540": " would",
    "541": " happy.",
    "542": "elt",
    "543": " liked",
    "544": "ly",
    "545": " like",
    "546": "s,",
    "547": " la",
    "548": "round",
    "549": " One",
    "550": "ry",
    "551": " felt",
    "552": " fa",
    "553": "ight",
    "554": " start",
    "555": " Ben",
    "556": " W",
    "557": "ell",
    "558": " But",
    "559": " make",
    "560": "You",
    "561": " asked",
    "562": " new",
    "563": " friends.",
    "564": " Sam",
    "565": "ought",
    "566": " smil",
    "567": "\nA",
    "568": " al",
    "569": " ag",
    "570": "ag",
    "571": " started",
    "572": " no",
    "573": " see",
    "574": " me",
    "575": " other",
    "576": " Sue",
    "577": " somet",
    "578": " good",
    "579": " br",
    "580": " say",
    "581": " came",
    "582": " car",
    "583": " small",
    "584": "\nS",
    "585": " mad",
    "586": "o,",
    "587": " scar",
    "588": "pot",
    "589": "ob",
    "590": "as",
    "591": " wor",
    "592": "ous",
    "593": " away",
    "594": "one",
    "595": " find",
    "596": " from",
    "597": "n,",
    "598": " put",
    "599": " hom",
    "600": " ex",
    "601": "ia",
    "602": " thought",
    "603": " what",
    "604": " playing",
    "605": " thing",
    "606": "us",
    "607": " made",
    "608": "ried",
    "609": "king",
    "610": " wal",
    "611": "ach",
    "612": " something",
    "613": "ile",
    "614": " every",
    "615": "ie",
    "616": " ran",
    "617": " Spot",
    "618": " again",
    "619": "uc",
    "620": "ab",
    "621": " F",
    "622": " box",
    "623": " down",
    "624": " fl",
    "625": "arn",
    "626": "dd",
    "627": "\nL",
    "628": "ook",
    "629": "ice",
    "630": " J",
    "631": " pr",
    "632": " co",
    "633": " took",
    "634": " smiled",
    "635": " sw",
    "636": "if",
    "637": " laug",
    "638": "ew",
    "639": "oud",
    "640": "ust",
    "641": " sun",
    "642": " around",
    "643": " day.",
    "644": " lived",
    "645": " some",
    "646": " will",
    "647": " learn",
    "648": " my",
    "649": "ure",
    "650": " your",
    "651": "ave",
    "652": "ick",
    "653": "ret",
    "654": "ep",
    "655": "\nB",
    "656": " \"T",
    "657": "es,",
    "658": "n't",
    "659": " when",
    "660": " You",
    "661": " bl",
    "662": "er.",
    "663": " together.",
    "664": "ist",
    "665": " said.",
    "666": "ank",
    "667": "uck",
    "668": " Mia",
    "669": " bot",
    "670": " ab",
    "671": "ish",
    "672": "ed,",
    "673": "ing.",
    "674": " get",
    "675": " who",
    "676": " know",
    "677": " fe",
    "678": " got",
    "679": "side",
    "680": " tree",
    "681": " knew",
    "682": " tried",
    "683": " lot",
    "684": "uch",
    "685": "le.",
    "686": "ny",
    "687": " com",
    "688": " int",
    "689": " ch",
    "690": "et's",
    "691": "hat",
    "692": "a.",
    "693": "pped",
    "694": "ump",
    "695": " pret",
    "696": "ss",
    "697": "nder",
    "698": " about",
    "699": " care",
    "700": "pen",
    "701": " dec",
    "702": " red",
    "703": "fter",
    "704": "ily.",
    "705": " D",
    "706": " look",
    "707": " tree.",
    "708": " fun.",
    "709": "ap",
    "710": "are",
    "711": " many",
    "712": " \"W",
    "713": "use",
    "714": " park.",
    "715": " un",
    "716": " more",
    "717": " E",
    "718": "nn",
    "719": " Mom",
    "720": " exc",
    "721": "ways",
    "722": "ive",
    "723": " Tim.",
    "724": "\nM",
    "725": " po",
    "726": " pic",
    "727": " always",
    "728": "qu",
    "729": "\nTim",
    "730": " open",
    "731": "�",
    "732": " best",
    "733": " excit",
    "734": "ide.",
    "735": " both",
    "736": " show",
    "737": " Luc",
    "738": " room",
    "739": " hug",
    "740": " big,",
    "741": " any",
    "742": " into",
    "743": "\nLily",
    "744": " became",
    "745": " water",
    "746": "ause",
    "747": "ant",
    "748": "ry.",
    "749": " laughed",
    "750": "udd",
    "751": " learned",
    "752": " dad",
    "753": "ided",
    "754": " v",
    "755": " because",
    "756": " gre",
    "757": " time",
    "758": " pe",
    "759": "ect",
    "760": " decided",
    "761": " And",
    "762": "pr",
    "763": "on't",
    "764": " too.",
    "765": " ho",
    "766": " sad.",
    "767": " again.",
    "768": " ke",
    "769": " eat",
    "770": " sor",
    "771": " this",
    "772": "ty",
    "773": " jump",
    "774": " long",
    "775": " feel",
    "776": " Bob",
    "777": " mo",
    "778": " him.",
    "779": " told",
    "780": " run",
    "781": "ull",
    "782": "ink",
    "783": " sur",
    "784": "\nThey",
    "785": "Yes,",
    "786": " rock",
    "787": " sl",
    "788": " sk",
    "789": ",\"",
    "790": " on,",
    "791": "ore.",
    "792": "lew",
    "793": "pris",
    "794": " take",
    "795": " am",
    "796": "ite",
    "797": " gave",
    "798": "ara",
    "799": " surpris",
    "800": " each",
    "801": " fast",
    "802": " Lucy",
    "803": " toys",
    "804": " tow",
    "805": " friend,",
    "806": "nna",
    "807": "our",
    "808": " one",
    "809": "ac",
    "810": "ally",
    "811": "ro",
    "812": "ower",
    "813": "ven",
    "814": " hous",
    "815": " or",
    "816": " much",
    "817": " than",
    "818": "\nTom",
    "819": "urt",
    "820": " how",
    "821": " Lily.",
    "822": " str",
    "823": " happen",
    "824": " under",
    "825": " things",
    "826": " need",
    "827": "ged",
    "828": "og",
    "829": "hank",
    "830": " kind",
    "831": " mom.",
    "832": " gra",
    "833": "\n\nOnce",
    "834": "imal",
    "835": " animal",
    "836": "ff",
    "837": " ta",
    "838": " \"Yes,",
    "839": " food",
    "840": " ball.",
    "841": "Can",
    "842": "etter",
    "843": " tr",
    "844": "ouse",
    "845": "h.",
    "846": " walked",
    "847": "ace",
    "848": " We",
    "849": " So,",
    "850": " them.",
    "851": " wat",
    "852": "ving",
    "853": " hand",
    "854": "side.",
    "855": " old",
    "856": " away.",
    "857": " His",
    "858": " list",
    "859": " hig",
    "860": "k.",
    "861": " nice",
    "862": " \"L",
    "863": "iny",
    "864": " clo",
    "865": " listen",
    "866": " just",
    "867": " en",
    "868": " \"H",
    "869": "rom",
    "870": " you,",
    "871": " its",
    "872": " cle",
    "873": "here",
    "874": " pretty",
    "875": "fe",
    "876": "ang",
    "877": " ide",
    "878": "eci",
    "879": "urn",
    "880": " didn't",
    "881": "on.",
    "882": " speci",
    "883": " special",
    "884": " near",
    "885": "\n\n",
    "886": "ber",
    "887": " flew",
    "888": " scared",
    "889": " home.",
    "890": " tw",
    "891": "pl",
    "892": " fi",
    "893": " fo",
    "894": " sn",
    "895": "ow,",
    "896": " if",
    "897": "\nBut",
    "898": " fish",
    "899": " her.",
    "900": " stor",
    "901": " over",
    "902": " bug",
    "903": "ess",
    "904": " excited",
    "905": " heard",
    "906": " careful",
    "907": "rm",
    "908": "udden",
    "909": " better",
    "910": " lots",
    "911": " try",
    "912": " then,",
    "913": "\nH",
    "914": " Amy",
    "915": "ort",
    "916": " hard",
    "917": "st.",
    "918": " Tom.",
    "919": " never",
    "920": "et.",
    "921": " wind",
    "922": " flower",
    "923": " hurt",
    "924": " then",
    "925": " bear",
    "926": " share",
    "927": " Every",
    "928": " dre",
    "929": "ly,",
    "930": " anym",
    "931": " even",
    "932": " te",
    "933": " shar",
    "934": "es.",
    "935": "and",
    "936": " tal",
    "937": "pect",
    "938": "sed",
    "939": " bu",
    "940": " outside",
    "941": " end",
    "942": " K",
    "943": " fore",
    "944": "his",
    "945": " give",
    "946": " peop",
    "947": " after",
    "948": " clean",
    "949": " proud",
    "950": "'m",
    "951": "uff",
    "952": "ry,",
    "953": "ad.",
    "954": " fam",
    "955": " gr",
    "956": " door",
    "957": " home",
    "958": " Anna",
    "959": " love",
    "960": " happened.",
    "961": " don't",
    "962": " says.",
    "963": "em",
    "964": "\nW",
    "965": "\nAs",
    "966": " gl",
    "967": " \"Thank",
    "968": "imb",
    "969": " \"You",
    "970": " From",
    "971": " bea",
    "972": " help.",
    "973": " ground",
    "974": " climb",
    "975": " turn",
    "976": " Her",
    "977": "ing,",
    "978": " thanked",
    "979": " im",
    "980": " When",
    "981": "iz",
    "982": " idea.",
    "983": " Sara",
    "984": "ve.",
    "985": " bird.",
    "986": " call",
    "987": " house.",
    "988": " book",
    "989": "kay",
    "990": " gard",
    "991": " garden",
    "992": " opened",
    "993": "ild",
    "994": "anc",
    "995": " by",
    "996": " ever",
    "997": " room.",
    "998": " che",
    "999": " col"
}